{
  "0": "<|endoftext|>",
  "1": "\u0000",
  "2": "\u0001",
  "3": "\u0002",
  "4": "\u0003",
  "5": "\u0004",
  "6": "\u0005",
  "7": "\u0006",
  "8": "\u0007",
  "9": "\b",
  "10": "\t",
  "11": "\n",
  "12": "\u000b",
  "13": "\f",
  "14": "\r",
  "15": "\u000e",
  "16": "\u000f",
  "17": "\u0010",
  "18": "\u0011",
  "19": "\u0012",
  "20": "\u0013",
  "21": "\u0014",
  "22": "\u0015",
  "23": "\u0016",
  "24": "\u0017",
  "25": "\u0018",
  "26": "\u0019",
  "27": "\u001a",
  "28": "\u001b",
  "29": "\u001c",
  "30": "\u001d",
  "31": "\u001e",
  "32": "\u001f",
  "33": " ",
  "34": "!",
  "35": "\"",
  "36": "#",
  "37": "$",
  "38": "%",
  "39": "&",
  "40": "'",
  "41": "(",
  "42": ")",
  "43": "*",
  "44": "+",
  "45": ",",
  "46": "-",
  "47": ".",
  "48": "/",
  "49": "0",
  "50": "1",
  "51": "2",
  "52": "3",
  "53": "4",
  "54": "5",
  "55": "6",
  "56": "7",
  "57": "8",
  "58": "9",
  "59": ":",
  "60": ";",
  "61": "<",
  "62": "=",
  "63": ">",
  "64": "?",
  "65": "@",
  "66": "A",
  "67": "B",
  "68": "C",
  "69": "D",
  "70": "E",
  "71": "F",
  "72": "G",
  "73": "H",
  "74": "I",
  "75": "J",
  "76": "K",
  "77": "L",
  "78": "M",
  "79": "N",
  "80": "O",
  "81": "P",
  "82": "Q",
  "83": "R",
  "84": "S",
  "85": "T",
  "86": "U",
  "87": "V",
  "88": "W",
  "89": "X",
  "90": "Y",
  "91": "Z",
  "92": "[",
  "93": "\\",
  "94": "]",
  "95": "^",
  "96": "_",
  "97": "`",
  "98": "a",
  "99": "b",
  "100": "c",
  "101": "d",
  "102": "e",
  "103": "f",
  "104": "g",
  "105": "h",
  "106": "i",
  "107": "j",
  "108": "k",
  "109": "l",
  "110": "m",
  "111": "n",
  "112": "o",
  "113": "p",
  "114": "q",
  "115": "r",
  "116": "s",
  "117": "t",
  "118": "u",
  "119": "v",
  "120": "w",
  "121": "x",
  "122": "y",
  "123": "z",
  "124": "{",
  "125": "|",
  "126": "}",
  "127": "~",
  "128": "\u007f",
  "129": "\ufffd",
  "130": "\ufffd",
  "131": "\ufffd",
  "132": "\ufffd",
  "133": "\ufffd",
  "134": "\ufffd",
  "135": "\ufffd",
  "136": "\ufffd",
  "137": "\ufffd",
  "138": "\ufffd",
  "139": "\ufffd",
  "140": "\ufffd",
  "141": "\ufffd",
  "142": "\ufffd",
  "143": "\ufffd",
  "144": "\ufffd",
  "145": "\ufffd",
  "146": "\ufffd",
  "147": "\ufffd",
  "148": "\ufffd",
  "149": "\ufffd",
  "150": "\ufffd",
  "151": "\ufffd",
  "152": "\ufffd",
  "153": "\ufffd",
  "154": "\ufffd",
  "155": "\ufffd",
  "156": "\ufffd",
  "157": "\ufffd",
  "158": "\ufffd",
  "159": "\ufffd",
  "160": "\ufffd",
  "161": "\ufffd",
  "162": "\ufffd",
  "163": "\ufffd",
  "164": "\ufffd",
  "165": "\ufffd",
  "166": "\ufffd",
  "167": "\ufffd",
  "168": "\ufffd",
  "169": "\ufffd",
  "170": "\ufffd",
  "171": "\ufffd",
  "172": "\ufffd",
  "173": "\ufffd",
  "174": "\ufffd",
  "175": "\ufffd",
  "176": "\ufffd",
  "177": "\ufffd",
  "178": "\ufffd",
  "179": "\ufffd",
  "180": "\ufffd",
  "181": "\ufffd",
  "182": "\ufffd",
  "183": "\ufffd",
  "184": "\ufffd",
  "185": "\ufffd",
  "186": "\ufffd",
  "187": "\ufffd",
  "188": "\ufffd",
  "189": "\ufffd",
  "190": "\ufffd",
  "191": "\ufffd",
  "192": "\ufffd",
  "193": "\ufffd",
  "194": "\ufffd",
  "195": "\ufffd",
  "196": "\ufffd",
  "197": "\ufffd",
  "198": "\ufffd",
  "199": "\ufffd",
  "200": "\ufffd",
  "201": "\ufffd",
  "202": "\ufffd",
  "203": "\ufffd",
  "204": "\ufffd",
  "205": "\ufffd",
  "206": "\ufffd",
  "207": "\ufffd",
  "208": "\ufffd",
  "209": "\ufffd",
  "210": "\ufffd",
  "211": "\ufffd",
  "212": "\ufffd",
  "213": "\ufffd",
  "214": "\ufffd",
  "215": "\ufffd",
  "216": "\ufffd",
  "217": "\ufffd",
  "218": "\ufffd",
  "219": "\ufffd",
  "220": "\ufffd",
  "221": "\ufffd",
  "222": "\ufffd",
  "223": "\ufffd",
  "224": "\ufffd",
  "225": "\ufffd",
  "226": "\ufffd",
  "227": "\ufffd",
  "228": "\ufffd",
  "229": "\ufffd",
  "230": "\ufffd",
  "231": "\ufffd",
  "232": "\ufffd",
  "233": "\ufffd",
  "234": "\ufffd",
  "235": "\ufffd",
  "236": "\ufffd",
  "237": "\ufffd",
  "238": "\ufffd",
  "239": "\ufffd",
  "240": "\ufffd",
  "241": "\ufffd",
  "242": "\ufffd",
  "243": "\ufffd",
  "244": "\ufffd",
  "245": "\ufffd",
  "246": "\ufffd",
  "247": "\ufffd",
  "248": "\ufffd",
  "249": "\ufffd",
  "250": "\ufffd",
  "251": "\ufffd",
  "252": "\ufffd",
  "253": "\ufffd",
  "254": "\ufffd",
  "255": "\ufffd",
  "256": "\ufffd",
  "257": " t",
  "258": "he",
  "259": " a",
  "260": " s",
  "261": " w",
  "262": "nd",
  "263": " the",
  "264": "ed",
  "265": " b",
  "266": " to",
  "267": " and",
  "268": " h",
  "269": " f",
  "270": " T",
  "271": "in",
  "272": " wa",
  "273": "re",
  "274": "it",
  "275": "ou",
  "276": " l",
  "277": " d",
  "278": " c",
  "279": " p",
  "280": "ay",
  "281": " m",
  "282": "er",
  "283": " was",
  "284": " The",
  "285": "om",
  "286": " he",
  "287": "is",
  "288": " n",
  "289": "im",
  "290": "ar",
  "291": "on",
  "292": " sa",
  "293": "ll",
  "294": "id",
  "295": " ha",
  "296": " g",
  "297": "at",
  "298": " S",
  "299": "ing",
  "300": "ot",
  "301": "en",
  "302": "an",
  "303": "le",
  "304": "or",
  "305": "end",
  "306": "ir",
  "307": "of",
  "308": "am",
  "309": "et",
  "310": " H",
  "311": " it",
  "312": " th",
  "313": "ig",
  "314": " They",
  "315": " pl",
  "316": " in",
  "317": "il",
  "318": " He",
  "319": " \"",
  "320": "ow",
  "321": "ver",
  "322": "ri",
  "323": " u",
  "324": "ut",
  "325": " play",
  "326": "ith",
  "327": " said",
  "328": " be",
  "329": " day",
  "330": " with",
  "331": "pp",
  "332": "On",
  "333": " y",
  "334": "ked",
  "335": "oo",
  "336": " r",
  "337": " her",
  "338": "ex",
  "339": "ce",
  "340": "ld",
  "341": " his",
  "342": " Tim",
  "343": " I",
  "344": " She",
  "345": " st",
  "346": "ke",
  "347": " big",
  "348": "nt",
  "349": "ck",
  "350": "very",
  "351": " you",
  "352": "st",
  "353": "ve",
  "354": "un",
  "355": " happ",
  "356": " on",
  "357": "all",
  "358": "riend",
  "359": " friend",
  "360": "ext",
  "361": " they",
  "362": "oft",
  "363": " L",
  "364": "ily",
  "365": " we",
  "366": " had",
  "367": " up",
  "368": " li",
  "369": " not",
  "370": "her",
  "371": " want",
  "372": "itt",
  "373": " of",
  "374": "|end",
  "375": "|endoft",
  "376": "|endoftext",
  "377": "|endoftext|",
  "378": "|endoftext|>",
  "379": "<|endoftext|>",
  "380": "ad",
  "381": " do",
  "382": " B",
  "383": " e",
  "384": "se",
  "385": " happy",
  "386": "ent",
  "387": " very",
  "388": " M",
  "389": "es",
  "390": " saw",
  "391": "One",
  "392": " that",
  "393": "ould",
  "394": "'s",
  "395": " for",
  "396": "ittle",
  "397": " mom",
  "398": " little",
  "399": " sh",
  "400": " she",
  "401": "ime",
  "402": "ch",
  "403": " nam",
  "404": " time",
  "405": " k",
  "406": " so",
  "407": "ound",
  "408": ".\"",
  "409": " there",
  "410": " named",
  "411": " bo",
  "412": " sm",
  "413": " were",
  "414": " wanted",
  "415": " Lily",
  "416": " ne",
  "417": " friends",
  "418": "out",
  "419": "ird",
  "420": " but",
  "421": "ved",
  "422": "ht",
  "423": "!\"",
  "424": "The",
  "425": " Tom",
  "426": " bird",
  "427": "el",
  "428": "ake",
  "429": " an",
  "430": "al",
  "431": " too",
  "432": "ome",
  "433": " went",
  "434": " wh",
  "435": "ide",
  "436": "Once",
  "437": " all",
  "438": " It",
  "439": " hel",
  "440": "ug",
  "441": "ue",
  "442": " help",
  "443": " is",
  "444": " loo",
  "445": " A",
  "446": " upon",
  "447": " lo",
  "448": "ter",
  "449": "ry",
  "450": " toy",
  "451": "ore",
  "452": " fun",
  "453": "ind",
  "454": "get",
  "455": "ill",
  "456": "ame",
  "457": " as",
  "458": " j",
  "459": "ra",
  "460": " at",
  "461": "gether",
  "462": " o",
  "463": " cat",
  "464": " did",
  "465": " re",
  "466": "ur",
  "467": " together",
  "468": "ack",
  "469": " se",
  "470": "ly",
  "471": " tre",
  "472": "ood",
  "473": " dog",
  "474": "ic",
  "475": " could",
  "476": "ted",
  "477": " can",
  "478": " ball",
  "479": "ard",
  "480": " gir",
  "481": " their",
  "482": "ark",
  "483": " girl",
  "484": " played",
  "485": "ec",
  "486": "my",
  "487": " him",
  "488": " ro",
  "489": " go",
  "490": "way",
  "491": "?\"",
  "492": "hed",
  "493": "ain",
  "494": " kn",
  "495": " le",
  "496": " out",
  "497": "hen",
  "498": " are",
  "499": " fr",
  "500": "um",
  "501": "'t",
  "502": " them",
  "503": " boy",
  "504": " sad",
  "505": "ul",
  "506": "ax",
  "507": " tree",
  "508": "other",
  "509": "oug",
  "510": " man",
  "511": " loved",
  "512": " have",
  "513": " cl",
  "514": " found",
  "515": " looked",
  "516": " sp",
  "517": " Sue",
  "518": " star",
  "519": " sc",
  "520": "one",
  "521": " back",
  "522": "own",
  "523": "hing",
  "524": "are",
  "525": " Max",
  "526": " like",
  "527": " bec",
  "528": "side",
  "529": "ful",
  "530": " me",
  "531": "op",
  "532": "ong",
  "533": " park",
  "534": " would",
  "535": "ight",
  "536": " liked",
  "537": "round",
  "538": " One",
  "539": "elt",
  "540": " fa",
  "541": " make",
  "542": " car",
  "543": "ell",
  "544": " But",
  "545": " felt",
  "546": " la",
  "547": " W",
  "548": " asked",
  "549": " Sam",
  "550": "You",
  "551": "ared",
  "552": "omet",
  "553": "ice",
  "554": " came",
  "555": " started",
  "556": " new",
  "557": "ag",
  "558": " see",
  "559": " no",
  "560": "ought",
  "561": "ouse",
  "562": " Ben",
  "563": " al",
  "564": "iled",
  "565": " ag",
  "566": " other",
  "567": " good",
  "568": "pot",
  "569": " somet",
  "570": " small",
  "571": " br",
  "572": "ob",
  "573": "ss",
  "574": " smiled",
  "575": "ade",
  "576": "ried",
  "577": "ings",
  "578": " say",
  "579": " find",
  "580": " wor",
  "581": " away",
  "582": " from",
  "583": " thought",
  "584": " made",
  "585": " Spot",
  "586": " what",
  "587": " ex",
  "588": " home",
  "589": " playing",
  "590": "ened",
  "591": " something",
  "592": "ty",
  "593": " put",
  "594": " every",
  "595": " wal",
  "596": " co",
  "597": "ach",
  "598": " mu",
  "599": "ia",
  "600": "uc",
  "601": "ook",
  "602": "ie",
  "603": "ny",
  "604": " F",
  "605": " again",
  "606": " ran",
  "607": " down",
  "608": "ile",
  "609": "dd",
  "610": "arn",
  "611": " toys",
  "612": "ave",
  "613": " pr",
  "614": "king",
  "615": " scared",
  "616": " some",
  "617": " took",
  "618": " laug",
  "619": " J",
  "620": " house",
  "621": " fl",
  "622": "if",
  "623": "ab",
  "624": " around",
  "625": " box",
  "626": " sw",
  "627": "ure",
  "628": "ick",
  "629": " learn",
  "630": "ep",
  "631": "ret",
  "632": "ish",
  "633": "oud",
  "634": "uck",
  "635": " your",
  "636": " lived",
  "637": " You",
  "638": " things",
  "639": " sun",
  "640": " then",
  "641": " will",
  "642": "ew",
  "643": " bl",
  "644": " my",
  "645": "as",
  "646": " when",
  "647": " ab",
  "648": "pped",
  "649": ",\"",
  "650": "us",
  "651": " get",
  "652": "ank",
  "653": "Tim",
  "654": "Th",
  "655": " ch",
  "656": " lot",
  "657": "ucy",
  "658": "oth",
  "659": "ap",
  "660": "ump",
  "661": " Mia",
  "662": " who",
  "663": " tried",
  "664": "ist",
  "665": " fe",
  "666": " know",
  "667": " got",
  "668": "ited",
  "669": "ust",
  "670": " many",
  "671": " about",
  "672": " says",
  "673": " int",
  "674": "ally",
  "675": "nder",
  "676": " red",
  "677": " knew",
  "678": " pret",
  "679": "ive",
  "680": " dec",
  "681": "Lily",
  "682": "ise",
  "683": "ous",
  "684": " any",
  "685": "au",
  "686": " D",
  "687": "ace",
  "688": " care",
  "689": " more",
  "690": " pic",
  "691": "qu",
  "692": " best",
  "693": "ause",
  "694": " op",
  "695": "fter",
  "696": " became",
  "697": " Lucy",
  "698": " po",
  "699": " water",
  "700": "ways",
  "701": "\ufffd",
  "702": "fe",
  "703": " hug",
  "704": " learned",
  "705": " Bob",
  "706": " exc",
  "707": " because",
  "708": "ite",
  "709": " always",
  "710": " look",
  "711": " v",
  "712": " outside",
  "713": " into",
  "714": " room",
  "715": " both",
  "716": " un",
  "717": "ided",
  "718": " show",
  "719": " laughed",
  "720": " So",
  "721": " eat",
  "722": " decided",
  "723": " And",
  "724": " ho",
  "725": " gre",
  "726": "urp",
  "727": "udd",
  "728": "ant",
  "729": " pe",
  "730": "ers",
  "731": " E",
  "732": " Mom",
  "733": " jump",
  "734": "nn",
  "735": " long",
  "736": " one",
  "737": " ke",
  "738": " this",
  "739": " run",
  "740": " nice",
  "741": "Yes",
  "742": " excited",
  "743": " fast",
  "744": "They",
  "745": "Tom",
  "746": " feel",
  "747": " dad",
  "748": " told",
  "749": " mo",
  "750": " sk",
  "751": " inside",
  "752": "our",
  "753": " am",
  "754": " tr",
  "755": " sl",
  "756": "ull",
  "757": "lew",
  "758": " sor",
  "759": " take",
  "760": "urpr",
  "761": " rock",
  "762": "iny",
  "763": " pretty",
  "764": "nna",
  "765": " surpr",
  "766": " gave",
  "767": " each",
  "768": " gra",
  "769": "imal",
  "770": "ink",
  "771": " animal",
  "772": " much",
  "773": " how",
  "774": "Wh",
  "775": " str",
  "776": " old",
  "777": " need",
  "778": "But",
  "779": " than",
  "780": " let",
  "781": "ven",
  "782": "ara",
  "783": "ro",
  "784": "ged",
  "785": " tow",
  "786": "ess",
  "787": " under",
  "788": " C",
  "789": " sorry",
  "790": " or",
  "791": " walked",
  "792": " cle",
  "793": "and",
  "794": " ta",
  "795": " hand",
  "796": "ge",
  "797": "ised",
  "798": "og",
  "799": " fish",
  "800": "urn",
  "801": " te",
  "802": "urt",
  "803": " kind",
  "804": "ff",
  "805": " clo",
  "806": " His",
  "807": " wat",
  "808": "ving",
  "809": " hig",
  "810": " animals",
  "811": "ase",
  "812": " Amy",
  "813": " just",
  "814": " us",
  "815": " happened",
  "816": "ched",
  "817": " food",
  "818": "pl",
  "819": " sky",
  "820": " flow",
  "821": "here",
  "822": " sn",
  "823": "rom",
  "824": " try",
  "825": " list",
  "826": " ide",
  "827": " We",
  "828": " near",
  "829": "gry",
  "830": " didn",
  "831": " idea",
  "832": " bet",
  "833": " en",
  "834": "able",
  "835": "ate",
  "836": "ine",
  "837": " fi",
  "838": " flew",
  "839": "eci",
  "840": " its",
  "841": "ream",
  "842": "Thank",
  "843": " careful",
  "844": " share",
  "845": " cake",
  "846": " heard",
  "847": " better",
  "848": " tw",
  "849": " stor",
  "850": " if",
  "851": "ecial",
  "852": " special",
  "853": " dan",
  "854": "pec",
  "855": "ber",
  "856": "ion",
  "857": " Th",
  "858": " bear",
  "859": " lots",
  "860": " wind",
  "861": "lf",
  "862": "more",
  "863": " anymore",
  "864": "udden",
  "865": " clean",
  "866": " never",
  "867": " fo",
  "868": " don",
  "869": "Mom",
  "870": " gr",
  "871": " bug",
  "872": " tal",
  "873": "ople",
  "874": " com",
  "875": " hard",
  "876": " bu",
  "877": " end",
  "878": " Then",
  "879": " by",
  "880": " fly",
  "881": "uddenly",
  "882": " mag",
  "883": "ort",
  "884": " turn",
  "885": " fore",
  "886": " over",
  "887": " Anna",
  "888": " Every",
  "889": " even",
  "890": "rm",
  "891": "\n\n",
  "892": " love",
  "893": " col",
  "894": " safe",
  "895": " people",
  "896": " after",
  "897": " bad",
  "898": "ady",
  "899": " high",
  "900": " fam",
  "901": " ground",
  "902": "ak",
  "903": " door",
  "904": "imb",
  "905": " come",
  "906": "bb",
  "907": " shiny",
  "908": " proud",
  "909": "As",
  "910": " opened",
  "911": " climb",
  "912": "uff",
  "913": " hurt",
  "914": " picked",
  "915": " blue",
  "916": " loud",
  "917": "pected",
  "918": "Let",
  "919": " che",
  "920": " give",
  "921": " way",
  "922": " surprised",
  "923": " gl",
  "924": "'m",
  "925": "expected",
  "926": " unexpected",
  "927": "ild",
  "928": " thanked",
  "929": " cu",
  "930": " book",
  "931": "ummy",
  "932": " When",
  "933": " From",
  "934": " call",
  "935": " color",
  "936": " Her",
  "937": " far",
  "938": "arden",
  "939": " garden",
  "940": " magic",
  "941": " ever",
  "942": " K",
  "943": " par",
  "944": "ough",
  "945": "kay",
  "946": " im",
  "947": " hugged",
  "948": " still",
  "949": " place",
  "950": "No",
  "951": " unt",
  "952": "ool",
  "953": " off",
  "954": " Sara",
  "955": "age",
  "956": " ma",
  "957": " smile",
  "958": " walk",
  "959": " P",
  "960": " jumped",
  "961": " family",
  "962": " In",
  "963": " until",
  "964": "unny",
  "965": "iz",
  "966": "ture",
  "967": "hes",
  "968": " pa",
  "969": "em",
  "970": " should",
  "971": " qu",
  "972": " now",
  "973": "ip",
  "974": " kid",
  "975": "ct",
  "976": " stick",
  "977": "itty",
  "978": " stay",
  "979": " strong",
  "980": " forest",
  "981": " sto",
  "982": "ane",
  "983": " dra",
  "984": "aut",
  "985": " app",
  "986": "uffy",
  "987": "dy",
  "988": " bro",
  "989": " boat",
  "990": " great",
  "991": " squ",
  "992": " bra",
  "993": " beaut",
  "994": " tra",
  "995": " next",
  "996": " jo",
  "997": " helped",
  "998": " Sally",
  "999": "lease",
  "1000": " hat",
  "1001": "les",
  "1002": " happily",
  "1003": " picture",
  "1004": " story",
  "1005": "iful",
  "1006": "ies",
  "1007": " beautiful",
  "1008": " listen",
  "1009": "ning",
  "1010": "th",
  "1011": " showed",
  "1012": " while",
  "1013": " called",
  "1014": "oon",
  "1015": " met",
  "1016": " clos",
  "1017": "Now",
  "1018": " kids",
  "1019": "pt",
  "1020": " open",
  "1021": " frog",
  "1022": " soft",
  "1023": " mor",
  "1024": " rem",
  "1025": "luffy",
  "1026": " town",
  "1027": " everyone",
  "1028": "Can",
  "1029": "It",
  "1030": "ger",
  "1031": " imp",
  "1032": " being",
  "1033": "He",
  "1034": "When",
  "1035": " stopped",
  "1036": " ad",
  "1037": "rel",
  "1038": " rain",
  "1039": " angry",
  "1040": "by",
  "1041": " yummy",
  "1042": " watch",
  "1043": "bit",
  "1044": " doll",
  "1045": " couldn",
  "1046": " ca",
  "1047": "abbit",
  "1048": "vent",
  "1049": "ary",
  "1050": " Let",
  "1051": "ree",
  "1052": " truck",
  "1053": " de",
  "1054": " wo",
  "1055": "ished",
  "1056": " Kitty",
  "1057": " mouse",
  "1058": " rabbit",
  "1059": "be",
  "1060": "dded",
  "1061": " ate",
  "1062": "ress",
  "1063": "iss",
  "1064": " Fluffy",
  "1065": " lost",
  "1066": " warm",
  "1067": " slide",
  "1068": " face",
  "1069": " brave",
  "1070": " game",
  "1071": " Wh",
  "1072": " keep",
  "1073": " fell",
  "1074": "fore",
  "1075": " leave",
  "1076": " flowers",
  "1077": " two",
  "1078": " cook",
  "1079": "owl",
  "1080": " bed",
  "1081": " cry",
  "1082": " pus",
  "1083": "illy",
  "1084": "so",
  "1085": "ock",
  "1086": " soon",
  "1087": " noise",
  "1088": " green",
  "1089": " also",
  "1090": " R",
  "1091": "That",
  "1092": " bunny",
  "1093": "ear",
  "1094": " nodded",
  "1095": " where",
  "1096": "gan",
  "1097": "self",
  "1098": " fix",
  "1099": " sat",
  "1100": " having",
  "1101": "ired",
  "1102": "Hi",
  "1103": " yell",
  "1104": " before",
  "1105": "\u201d",
  "1106": " kept",
  "1107": " hole",
  "1108": " pain",
  "1109": "\u201c",
  "1110": " hear",
  "1111": "ble",
  "1112": "day",
  "1113": " store",
  "1114": "What",
  "1115": " hands",
  "1116": " catch",
  "1117": "Look",
  "1118": " use",
  "1119": "irrel",
  "1120": "Then",
  "1121": " sing",
  "1122": " fin",
  "1123": "az",
  "1124": "irst",
  "1125": " used",
  "1126": " mommy",
  "1127": " thr",
  "1128": " expl",
  "1129": " funny",
  "1130": " squirrel",
  "1131": " birds",
  "1132": "Ben",
  "1133": " Now",
  "1134": " cra",
  "1135": " looking",
  "1136": "uch",
  "1137": " tired",
  "1138": " ey",
  "1139": " going",
  "1140": " wait",
  "1141": " bre",
  "1142": " kit",
  "1143": "oy",
  "1144": "eet",
  "1145": "aybe",
  "1146": "leep",
  "1147": " mean",
  "1148": "ange",
  "1149": "thing",
  "1150": "ught",
  "1151": " our",
  "1152": "led",
  "1153": " pull",
  "1154": "air",
  "1155": " dif",
  "1156": " fav",
  "1157": " sunny",
  "1158": " tri",
  "1159": " pond",
  "1160": "ember",
  "1161": " Can",
  "1162": " has",
  "1163": "chen",
  "1164": " kitchen",
  "1165": " wr",
  "1166": " party",
  "1167": "ting",
  "1168": " think",
  "1169": " ice",
  "1170": " flo",
  "1171": "orn",
  "1172": "oh",
  "1173": " work",
  "1174": "ac",
  "1175": "We",
  "1176": " head",
  "1177": "uit",
  "1178": " bus",
  "1179": " worked",
  "1180": " mess",
  "1181": " dr",
  "1182": "ng",
  "1183": " real",
  "1184": " Do",
  "1185": "zy",
  "1186": "ious",
  "1187": "ohn",
  "1188": " okay",
  "1189": " others",
  "1190": " sound",
  "1191": "llow",
  "1192": "ft",
  "1193": " moral",
  "1194": " beh",
  "1195": " eyes",
  "1196": "ath",
  "1197": " sand",
  "1198": "rew",
  "1199": " talk",
  "1200": " shared",
  "1201": " advent",
  "1202": " z",
  "1203": " remember",
  "1204": " \u201c",
  "1205": " favor",
  "1206": "joy",
  "1207": "ma",
  "1208": " favorite",
  "1209": "ello",
  "1210": "Hello",
  "1211": " right",
  "1212": " ask",
  "1213": " curi",
  "1214": " cut",
  "1215": " cold",
  "1216": " ri",
  "1217": " hop",
  "1218": " con",
  "1219": " import",
  "1220": " hill",
  "1221": " mon",
  "1222": "lly",
  "1223": " dir",
  "1224": "imes",
  "1225": " making",
  "1226": " enjoy",
  "1227": " follow",
  "1228": " curious",
  "1229": " vo",
  "1230": " pie",
  "1231": " bright",
  "1232": " yard",
  "1233": " G",
  "1234": "At",
  "1235": " flower",
  "1236": "ken",
  "1237": "Don",
  "1238": " sweet",
  "1239": "reed",
  "1240": " move",
  "1241": " duck",
  "1242": " dis",
  "1243": " rest",
  "1244": " own",
  "1245": " draw",
  "1246": " first",
  "1247": " important",
  "1248": " top",
  "1249": " Jack",
  "1250": " sho",
  "1251": " cla",
  "1252": " began",
  "1253": " tall",
  "1254": " pick",
  "1255": " block",
  "1256": " watched",
  "1257": "ount",
  "1258": " sleep",
  "1259": " bel",
  "1260": " lady",
  "1261": "After",
  "1262": " night",
  "1263": " thing",
  "1264": "Wow",
  "1265": "ied",
  "1266": " race",
  "1267": "ster",
  "1268": " tail",
  "1269": " hot",
  "1270": "fere",
  "1271": " hid",
  "1272": " hun",
  "1273": " differe",
  "1274": " agreed",
  "1275": " floor",
  "1276": " shout",
  "1277": " here",
  "1278": " stop",
  "1279": "ect",
  "1280": " forg",
  "1281": " dark",
  "1282": " This",
  "1283": " bag",
  "1284": " grass",
  "1285": "ign",
  "1286": " worry",
  "1287": " song",
  "1288": " table",
  "1289": " tast",
  "1290": " tell",
  "1291": "que",
  "1292": " prin",
  "1293": " needed",
  "1294": " leaves",
  "1295": "aring",
  "1296": " voice",
  "1297": " yellow",
  "1298": " read",
  "1299": "aper",
  "1300": " farm",
  "1301": " Fin",
  "1302": " ru",
  "1303": " trees",
  "1304": " dress",
  "1305": " hair",
  "1306": " swing"
}