{
  "0": "<|endoftext|>",
  "1": "\u0000",
  "2": "\u0001",
  "3": "\u0002",
  "4": "\u0003",
  "5": "\u0004",
  "6": "\u0005",
  "7": "\u0006",
  "8": "\u0007",
  "9": "\b",
  "10": "\t",
  "11": "\n",
  "12": "\u000b",
  "13": "\f",
  "14": "\r",
  "15": "\u000e",
  "16": "\u000f",
  "17": "\u0010",
  "18": "\u0011",
  "19": "\u0012",
  "20": "\u0013",
  "21": "\u0014",
  "22": "\u0015",
  "23": "\u0016",
  "24": "\u0017",
  "25": "\u0018",
  "26": "\u0019",
  "27": "\u001a",
  "28": "\u001b",
  "29": "\u001c",
  "30": "\u001d",
  "31": "\u001e",
  "32": "\u001f",
  "33": " ",
  "34": "!",
  "35": "\"",
  "36": "#",
  "37": "$",
  "38": "%",
  "39": "&",
  "40": "'",
  "41": "(",
  "42": ")",
  "43": "*",
  "44": "+",
  "45": ",",
  "46": "-",
  "47": ".",
  "48": "/",
  "49": "0",
  "50": "1",
  "51": "2",
  "52": "3",
  "53": "4",
  "54": "5",
  "55": "6",
  "56": "7",
  "57": "8",
  "58": "9",
  "59": ":",
  "60": ";",
  "61": "<",
  "62": "=",
  "63": ">",
  "64": "?",
  "65": "@",
  "66": "A",
  "67": "B",
  "68": "C",
  "69": "D",
  "70": "E",
  "71": "F",
  "72": "G",
  "73": "H",
  "74": "I",
  "75": "J",
  "76": "K",
  "77": "L",
  "78": "M",
  "79": "N",
  "80": "O",
  "81": "P",
  "82": "Q",
  "83": "R",
  "84": "S",
  "85": "T",
  "86": "U",
  "87": "V",
  "88": "W",
  "89": "X",
  "90": "Y",
  "91": "Z",
  "92": "[",
  "93": "\\",
  "94": "]",
  "95": "^",
  "96": "_",
  "97": "`",
  "98": "a",
  "99": "b",
  "100": "c",
  "101": "d",
  "102": "e",
  "103": "f",
  "104": "g",
  "105": "h",
  "106": "i",
  "107": "j",
  "108": "k",
  "109": "l",
  "110": "m",
  "111": "n",
  "112": "o",
  "113": "p",
  "114": "q",
  "115": "r",
  "116": "s",
  "117": "t",
  "118": "u",
  "119": "v",
  "120": "w",
  "121": "x",
  "122": "y",
  "123": "z",
  "124": "{",
  "125": "|",
  "126": "}",
  "127": "~",
  "128": "\u007f",
  "129": "\ufffd",
  "130": "\ufffd",
  "131": "\ufffd",
  "132": "\ufffd",
  "133": "\ufffd",
  "134": "\ufffd",
  "135": "\ufffd",
  "136": "\ufffd",
  "137": "\ufffd",
  "138": "\ufffd",
  "139": "\ufffd",
  "140": "\ufffd",
  "141": "\ufffd",
  "142": "\ufffd",
  "143": "\ufffd",
  "144": "\ufffd",
  "145": "\ufffd",
  "146": "\ufffd",
  "147": "\ufffd",
  "148": "\ufffd",
  "149": "\ufffd",
  "150": "\ufffd",
  "151": "\ufffd",
  "152": "\ufffd",
  "153": "\ufffd",
  "154": "\ufffd",
  "155": "\ufffd",
  "156": "\ufffd",
  "157": "\ufffd",
  "158": "\ufffd",
  "159": "\ufffd",
  "160": "\ufffd",
  "161": "\ufffd",
  "162": "\ufffd",
  "163": "\ufffd",
  "164": "\ufffd",
  "165": "\ufffd",
  "166": "\ufffd",
  "167": "\ufffd",
  "168": "\ufffd",
  "169": "\ufffd",
  "170": "\ufffd",
  "171": "\ufffd",
  "172": "\ufffd",
  "173": "\ufffd",
  "174": "\ufffd",
  "175": "\ufffd",
  "176": "\ufffd",
  "177": "\ufffd",
  "178": "\ufffd",
  "179": "\ufffd",
  "180": "\ufffd",
  "181": "\ufffd",
  "182": "\ufffd",
  "183": "\ufffd",
  "184": "\ufffd",
  "185": "\ufffd",
  "186": "\ufffd",
  "187": "\ufffd",
  "188": "\ufffd",
  "189": "\ufffd",
  "190": "\ufffd",
  "191": "\ufffd",
  "192": "\ufffd",
  "193": "\ufffd",
  "194": "\ufffd",
  "195": "\ufffd",
  "196": "\ufffd",
  "197": "\ufffd",
  "198": "\ufffd",
  "199": "\ufffd",
  "200": "\ufffd",
  "201": "\ufffd",
  "202": "\ufffd",
  "203": "\ufffd",
  "204": "\ufffd",
  "205": "\ufffd",
  "206": "\ufffd",
  "207": "\ufffd",
  "208": "\ufffd",
  "209": "\ufffd",
  "210": "\ufffd",
  "211": "\ufffd",
  "212": "\ufffd",
  "213": "\ufffd",
  "214": "\ufffd",
  "215": "\ufffd",
  "216": "\ufffd",
  "217": "\ufffd",
  "218": "\ufffd",
  "219": "\ufffd",
  "220": "\ufffd",
  "221": "\ufffd",
  "222": "\ufffd",
  "223": "\ufffd",
  "224": "\ufffd",
  "225": "\ufffd",
  "226": "\ufffd",
  "227": "\ufffd",
  "228": "\ufffd",
  "229": "\ufffd",
  "230": "\ufffd",
  "231": "\ufffd",
  "232": "\ufffd",
  "233": "\ufffd",
  "234": "\ufffd",
  "235": "\ufffd",
  "236": "\ufffd",
  "237": "\ufffd",
  "238": "\ufffd",
  "239": "\ufffd",
  "240": "\ufffd",
  "241": "\ufffd",
  "242": "\ufffd",
  "243": "\ufffd",
  "244": "\ufffd",
  "245": "\ufffd",
  "246": "\ufffd",
  "247": "\ufffd",
  "248": "\ufffd",
  "249": "\ufffd",
  "250": "\ufffd",
  "251": "\ufffd",
  "252": "\ufffd",
  "253": "\ufffd",
  "254": "\ufffd",
  "255": "\ufffd",
  "256": "\ufffd",
  "257": " t",
  "258": "he",
  "259": " a",
  "260": " s",
  "261": " w",
  "262": "nd",
  "263": " the",
  "264": "ed",
  "265": " b",
  "266": " to",
  "267": " and",
  "268": " h",
  "269": " f",
  "270": " T",
  "271": "in",
  "272": " wa",
  "273": "re",
  "274": "it",
  "275": "ou",
  "276": " l",
  "277": " d",
  "278": " c",
  "279": " p",
  "280": "ay",
  "281": " m",
  "282": "er",
  "283": " was",
  "284": " The",
  "285": "om",
  "286": " he",
  "287": "is",
  "288": " n",
  "289": "im",
  "290": "ar",
  "291": "on",
  "292": " sa",
  "293": "ll",
  "294": "id",
  "295": " ha",
  "296": " g",
  "297": "at",
  "298": " S",
  "299": "ing",
  "300": "ot",
  "301": "en",
  "302": "an",
  "303": "le",
  "304": "or",
  "305": "end",
  "306": "ir",
  "307": "of",
  "308": "am",
  "309": "et",
  "310": " H",
  "311": " it",
  "312": " th",
  "313": "ig",
  "314": " They",
  "315": " pl",
  "316": " in",
  "317": "il",
  "318": " He",
  "319": " \"",
  "320": "ow",
  "321": "ver",
  "322": "ri",
  "323": " u",
  "324": "ut",
  "325": " play",
  "326": "ith",
  "327": " said",
  "328": " be",
  "329": " day",
  "330": " with",
  "331": "pp",
  "332": "On",
  "333": " y",
  "334": "ked",
  "335": "oo",
  "336": " r",
  "337": " her",
  "338": "ex",
  "339": "ce",
  "340": "ld",
  "341": " his",
  "342": " Tim",
  "343": " I",
  "344": " She",
  "345": " st",
  "346": "ke",
  "347": " big",
  "348": "nt",
  "349": "ck",
  "350": "very",
  "351": " you",
  "352": "st",
  "353": "ve",
  "354": "un",
  "355": " happ",
  "356": " on",
  "357": "all",
  "358": "riend",
  "359": " friend",
  "360": "ext",
  "361": " they",
  "362": "oft",
  "363": " L",
  "364": "ily",
  "365": " we",
  "366": " had",
  "367": " up",
  "368": " li",
  "369": " not",
  "370": "her",
  "371": " want",
  "372": "itt",
  "373": " of",
  "374": "|end",
  "375": "|endoft",
  "376": "|endoftext",
  "377": "|endoftext|",
  "378": "|endoftext|>",
  "379": "<|endoftext|>",
  "380": "ad",
  "381": " do",
  "382": " B",
  "383": " e",
  "384": "se",
  "385": " happy",
  "386": "ent",
  "387": " very",
  "388": " M",
  "389": "es",
  "390": " saw",
  "391": "One",
  "392": " that",
  "393": "ould",
  "394": "'s",
  "395": " for",
  "396": "ittle",
  "397": " mom",
  "398": " little",
  "399": " sh",
  "400": " she",
  "401": "ime",
  "402": "ch",
  "403": " nam",
  "404": " time",
  "405": " k",
  "406": " so",
  "407": "ound",
  "408": ".\"",
  "409": " there",
  "410": " named",
  "411": " bo",
  "412": " sm",
  "413": " were",
  "414": " wanted",
  "415": " Lily",
  "416": " ne",
  "417": " friends",
  "418": "out",
  "419": "ird",
  "420": " but",
  "421": "ved",
  "422": "ht",
  "423": "!\"",
  "424": "The",
  "425": " Tom",
  "426": " bird",
  "427": "el",
  "428": "ake",
  "429": " an",
  "430": "al",
  "431": " too",
  "432": "ome",
  "433": " went",
  "434": " wh",
  "435": "ide",
  "436": "Once",
  "437": " all",
  "438": " It",
  "439": " hel",
  "440": "ug",
  "441": "ue",
  "442": " help",
  "443": " is",
  "444": " loo",
  "445": " A",
  "446": " upon",
  "447": " lo",
  "448": "ter",
  "449": "ry",
  "450": " toy",
  "451": "ore",
  "452": " fun",
  "453": "ind",
  "454": "get",
  "455": "ill",
  "456": "ame",
  "457": " as",
  "458": " j",
  "459": "ra",
  "460": " at",
  "461": "gether",
  "462": " o",
  "463": " cat",
  "464": " did",
  "465": " re",
  "466": "ur",
  "467": " together",
  "468": "ack",
  "469": " se",
  "470": "ly",
  "471": " tre",
  "472": "ood",
  "473": " dog",
  "474": "ic",
  "475": " could",
  "476": "ted",
  "477": " can",
  "478": " ball",
  "479": "ard",
  "480": " gir",
  "481": " their",
  "482": "ark",
  "483": " girl",
  "484": " played",
  "485": "ec",
  "486": "my",
  "487": " him",
  "488": " ro",
  "489": " go",
  "490": "way",
  "491": "?\"",
  "492": "hed",
  "493": "ain",
  "494": " kn",
  "495": " le",
  "496": " out",
  "497": "hen",
  "498": " are",
  "499": " fr",
  "500": "um",
  "501": "'t",
  "502": " them",
  "503": " boy",
  "504": " sad",
  "505": "ul",
  "506": "ax",
  "507": " tree",
  "508": "other",
  "509": "oug",
  "510": " man",
  "511": " loved",
  "512": " have",
  "513": " cl",
  "514": " found",
  "515": " looked",
  "516": " sp",
  "517": " Sue",
  "518": " star",
  "519": " sc",
  "520": "one",
  "521": " back",
  "522": "own",
  "523": "hing",
  "524": "are",
  "525": " Max",
  "526": " like",
  "527": " bec",
  "528": "side",
  "529": "ful",
  "530": " me",
  "531": "op",
  "532": "ong",
  "533": " park",
  "534": " would",
  "535": "ight",
  "536": " liked",
  "537": "round",
  "538": " One",
  "539": "elt",
  "540": " fa",
  "541": " make",
  "542": " car",
  "543": "ell",
  "544": " But",
  "545": " felt",
  "546": " la",
  "547": " W",
  "548": " asked",
  "549": " Sam",
  "550": "You",
  "551": "ared",
  "552": "omet",
  "553": "ice",
  "554": " came",
  "555": " started",
  "556": " new",
  "557": "ag",
  "558": " see",
  "559": " no",
  "560": "ought",
  "561": "ouse",
  "562": " Ben",
  "563": " al",
  "564": "iled",
  "565": " ag",
  "566": " other",
  "567": " good",
  "568": "pot",
  "569": " somet",
  "570": " small",
  "571": " br",
  "572": "ob",
  "573": "ss",
  "574": " smiled",
  "575": "ade",
  "576": "ried",
  "577": "ings",
  "578": " say",
  "579": " find",
  "580": " wor",
  "581": " away",
  "582": " from",
  "583": " thought",
  "584": " made",
  "585": " Spot",
  "586": " what",
  "587": " ex",
  "588": " home",
  "589": " playing",
  "590": "ened",
  "591": " something",
  "592": "ty",
  "593": " put",
  "594": " every",
  "595": " wal",
  "596": " co",
  "597": "ach",
  "598": " mu",
  "599": "ia",
  "600": "uc",
  "601": "ook",
  "602": "ie",
  "603": "ny",
  "604": " F",
  "605": " again",
  "606": " ran",
  "607": " down",
  "608": "ile",
  "609": "dd",
  "610": "arn",
  "611": " toys",
  "612": "ave",
  "613": " pr",
  "614": "king",
  "615": " scared",
  "616": " some",
  "617": " took",
  "618": " laug",
  "619": " J",
  "620": " house",
  "621": " fl",
  "622": "if",
  "623": "ab",
  "624": " around",
  "625": " box",
  "626": " sw",
  "627": "ure",
  "628": "ick",
  "629": " learn",
  "630": "ep",
  "631": "ret",
  "632": "ish",
  "633": "oud",
  "634": "uck",
  "635": " your",
  "636": " lived",
  "637": " You",
  "638": " things",
  "639": " sun",
  "640": " then",
  "641": " will",
  "642": "ew",
  "643": " bl",
  "644": " my",
  "645": "as",
  "646": " when",
  "647": " ab",
  "648": "pped",
  "649": ",\"",
  "650": "us",
  "651": " get",
  "652": "ank",
  "653": "Tim",
  "654": "Th",
  "655": " ch",
  "656": " lot",
  "657": "ucy",
  "658": "oth",
  "659": "ap",
  "660": "ump",
  "661": " Mia",
  "662": " who",
  "663": " tried",
  "664": "ist",
  "665": " fe",
  "666": " know",
  "667": " got",
  "668": "ited",
  "669": "ust",
  "670": " many",
  "671": " about",
  "672": " says",
  "673": " int",
  "674": "ally",
  "675": "nder",
  "676": " red",
  "677": " knew",
  "678": " pret",
  "679": "ive",
  "680": " dec",
  "681": "Lily",
  "682": "ise",
  "683": "ous",
  "684": " any",
  "685": "au",
  "686": " D",
  "687": "ace",
  "688": " care",
  "689": " more",
  "690": " pic",
  "691": "qu",
  "692": " best",
  "693": "ause",
  "694": " op",
  "695": "fter",
  "696": " became",
  "697": " Lucy",
  "698": " po",
  "699": " water",
  "700": "ways",
  "701": "\ufffd",
  "702": "fe",
  "703": " hug",
  "704": " learned",
  "705": " Bob",
  "706": " exc",
  "707": " because",
  "708": "ite",
  "709": " always",
  "710": " look",
  "711": " v",
  "712": " outside",
  "713": " into",
  "714": " room",
  "715": " both",
  "716": " un",
  "717": "ided",
  "718": " show",
  "719": " laughed",
  "720": " So",
  "721": " eat",
  "722": " decided",
  "723": " And",
  "724": " ho",
  "725": " gre",
  "726": "urp",
  "727": "udd",
  "728": "ant",
  "729": " pe",
  "730": "ers",
  "731": " E",
  "732": " Mom",
  "733": " jump",
  "734": "nn",
  "735": " long",
  "736": " one",
  "737": " ke",
  "738": " this",
  "739": " run",
  "740": " nice",
  "741": "Yes",
  "742": " excited",
  "743": " fast",
  "744": "They",
  "745": "Tom",
  "746": " feel",
  "747": " dad",
  "748": " told",
  "749": " mo",
  "750": " sk",
  "751": " inside",
  "752": "our",
  "753": " am",
  "754": " tr",
  "755": " sl",
  "756": "ull",
  "757": "lew",
  "758": " sor",
  "759": " take",
  "760": "urpr",
  "761": " rock",
  "762": "iny",
  "763": " pretty",
  "764": "nna",
  "765": " surpr",
  "766": " gave",
  "767": " each",
  "768": " gra",
  "769": "imal",
  "770": "ink",
  "771": " animal",
  "772": " much",
  "773": " how",
  "774": "Wh",
  "775": " str",
  "776": " old",
  "777": " need",
  "778": "But",
  "779": " than",
  "780": " let",
  "781": "ven",
  "782": "ara",
  "783": "ro",
  "784": "ged",
  "785": " tow",
  "786": "ess",
  "787": " under",
  "788": " C",
  "789": " sorry",
  "790": " or",
  "791": " walked",
  "792": " cle",
  "793": "and",
  "794": " ta",
  "795": " hand",
  "796": "ge",
  "797": "ised",
  "798": "og",
  "799": " fish",
  "800": "urn",
  "801": " te",
  "802": "urt",
  "803": " kind",
  "804": "ff",
  "805": " clo",
  "806": " His",
  "807": " wat",
  "808": "ving",
  "809": " hig",
  "810": " animals",
  "811": "ase",
  "812": " Amy",
  "813": " just",
  "814": " us",
  "815": " happened",
  "816": "ched",
  "817": " food",
  "818": "pl",
  "819": " sky",
  "820": " flow",
  "821": "here",
  "822": " sn",
  "823": "rom",
  "824": " try",
  "825": " list",
  "826": " ide",
  "827": " We",
  "828": " near",
  "829": "gry",
  "830": " didn",
  "831": " idea",
  "832": " bet",
  "833": " en",
  "834": "able",
  "835": "ate",
  "836": "ine",
  "837": " fi",
  "838": " flew",
  "839": "eci",
  "840": " its",
  "841": "ream",
  "842": "Thank",
  "843": " careful",
  "844": " share",
  "845": " cake",
  "846": " heard",
  "847": " better",
  "848": " tw",
  "849": " stor",
  "850": " if",
  "851": "ecial",
  "852": " special",
  "853": " dan",
  "854": "pec",
  "855": "ber",
  "856": "ion",
  "857": " Th",
  "858": " bear",
  "859": " lots",
  "860": " wind",
  "861": "lf",
  "862": "more",
  "863": " anymore",
  "864": "udden",
  "865": " clean",
  "866": " never",
  "867": " fo",
  "868": " don",
  "869": "Mom",
  "870": " gr",
  "871": " bug",
  "872": " tal",
  "873": "ople",
  "874": " com",
  "875": " hard",
  "876": " bu",
  "877": " end",
  "878": " Then",
  "879": " by",
  "880": " fly",
  "881": "uddenly",
  "882": " mag",
  "883": "ort",
  "884": " turn",
  "885": " fore",
  "886": " over",
  "887": " Anna",
  "888": " Every",
  "889": " even",
  "890": "rm",
  "891": "\n\n",
  "892": " love",
  "893": " col",
  "894": " safe",
  "895": " people",
  "896": " after",
  "897": " bad",
  "898": "ady",
  "899": " high",
  "900": " fam",
  "901": " ground",
  "902": "ak",
  "903": " door",
  "904": "imb",
  "905": " come",
  "906": "bb",
  "907": " shiny",
  "908": " proud",
  "909": "As",
  "910": " opened",
  "911": " climb",
  "912": "uff",
  "913": " hurt",
  "914": " picked",
  "915": " blue",
  "916": " loud",
  "917": "pected",
  "918": "Let",
  "919": " che",
  "920": " give",
  "921": " way",
  "922": " surprised",
  "923": " gl",
  "924": "'m",
  "925": "expected",
  "926": " unexpected",
  "927": "ild",
  "928": " thanked",
  "929": " cu",
  "930": " book",
  "931": "ummy",
  "932": " When",
  "933": " From",
  "934": " call",
  "935": " color",
  "936": " Her",
  "937": " far",
  "938": "arden",
  "939": " garden",
  "940": " magic",
  "941": " ever",
  "942": " K",
  "943": " par",
  "944": "ough",
  "945": "kay",
  "946": " im",
  "947": " hugged",
  "948": " still",
  "949": " place",
  "950": "No",
  "951": " unt",
  "952": "ool",
  "953": " off",
  "954": " Sara",
  "955": "age",
  "956": " ma",
  "957": " smile",
  "958": " walk",
  "959": " P",
  "960": " jumped",
  "961": " family",
  "962": " In",
  "963": " until",
  "964": "unny",
  "965": "iz",
  "966": "ture",
  "967": "hes",
  "968": " pa",
  "969": "em",
  "970": " should",
  "971": " qu",
  "972": " now",
  "973": "ip",
  "974": " kid",
  "975": "ct",
  "976": " stick",
  "977": "itty",
  "978": " stay",
  "979": " strong",
  "980": " forest",
  "981": " sto",
  "982": "ane",
  "983": " dra",
  "984": "aut",
  "985": " app",
  "986": "uffy",
  "987": "dy",
  "988": " bro",
  "989": " boat",
  "990": " great",
  "991": " squ",
  "992": " bra",
  "993": " beaut",
  "994": " tra",
  "995": " next",
  "996": " jo",
  "997": " helped",
  "998": " Sally",
  "999": "lease",
  "1000": " hat",
  "1001": "les",
  "1002": " happily",
  "1003": " picture",
  "1004": " story",
  "1005": "iful",
  "1006": "ies",
  "1007": " beautiful",
  "1008": " listen",
  "1009": "ning",
  "1010": "th",
  "1011": " showed",
  "1012": " while",
  "1013": " called",
  "1014": "oon",
  "1015": " met",
  "1016": " clos",
  "1017": "Now",
  "1018": " kids",
  "1019": "pt",
  "1020": " open",
  "1021": " frog",
  "1022": " soft",
  "1023": " mor",
  "1024": " rem",
  "1025": "luffy",
  "1026": " town",
  "1027": " everyone",
  "1028": "Can",
  "1029": "It",
  "1030": "ger",
  "1031": " imp",
  "1032": " being",
  "1033": "He",
  "1034": "When",
  "1035": " stopped",
  "1036": " ad",
  "1037": "rel",
  "1038": " rain",
  "1039": " angry",
  "1040": "by",
  "1041": " yummy",
  "1042": " watch",
  "1043": "bit",
  "1044": " doll",
  "1045": " couldn",
  "1046": " ca",
  "1047": "abbit",
  "1048": "vent",
  "1049": "ary",
  "1050": " Let",
  "1051": "ree",
  "1052": " truck",
  "1053": " de",
  "1054": " wo",
  "1055": "ished",
  "1056": " Kitty",
  "1057": " mouse",
  "1058": " rabbit",
  "1059": "be",
  "1060": "dded",
  "1061": " ate",
  "1062": "ress",
  "1063": "iss",
  "1064": " Fluffy",
  "1065": " lost",
  "1066": " warm",
  "1067": " slide",
  "1068": " face",
  "1069": " brave",
  "1070": " game",
  "1071": " Wh",
  "1072": " keep",
  "1073": " fell",
  "1074": "fore",
  "1075": " leave",
  "1076": " flowers",
  "1077": " two",
  "1078": " cook",
  "1079": "owl",
  "1080": " bed",
  "1081": " cry",
  "1082": " pus",
  "1083": "illy",
  "1084": "so",
  "1085": "ock",
  "1086": " soon",
  "1087": " noise",
  "1088": " green",
  "1089": " also",
  "1090": " R",
  "1091": "That",
  "1092": " bunny",
  "1093": "ear",
  "1094": " nodded",
  "1095": " where",
  "1096": "gan",
  "1097": "self",
  "1098": " fix",
  "1099": " sat",
  "1100": " having",
  "1101": "ired",
  "1102": "Hi",
  "1103": " yell",
  "1104": " before",
  "1105": "\u201d",
  "1106": " kept",
  "1107": " hole",
  "1108": " pain",
  "1109": "\u201c",
  "1110": " hear",
  "1111": "ble",
  "1112": "day",
  "1113": " store",
  "1114": "What",
  "1115": " hands",
  "1116": " catch",
  "1117": "Look",
  "1118": " use",
  "1119": "irrel",
  "1120": "Then",
  "1121": " sing",
  "1122": " fin",
  "1123": "az",
  "1124": "irst",
  "1125": " used",
  "1126": " mommy",
  "1127": " thr",
  "1128": " expl",
  "1129": " funny",
  "1130": " squirrel",
  "1131": " birds",
  "1132": "Ben",
  "1133": " Now",
  "1134": " cra",
  "1135": " looking",
  "1136": "uch",
  "1137": " tired",
  "1138": " ey",
  "1139": " going",
  "1140": " wait",
  "1141": " bre",
  "1142": " kit",
  "1143": "oy",
  "1144": "eet",
  "1145": "aybe",
  "1146": "leep",
  "1147": " mean",
  "1148": "ange",
  "1149": "thing",
  "1150": "ught",
  "1151": " our",
  "1152": "led",
  "1153": " pull",
  "1154": "air",
  "1155": " dif",
  "1156": " fav",
  "1157": " sunny",
  "1158": " tri",
  "1159": " pond",
  "1160": "ember",
  "1161": " Can",
  "1162": " has",
  "1163": "chen",
  "1164": " kitchen",
  "1165": " wr",
  "1166": " party",
  "1167": "ting",
  "1168": " think",
  "1169": " ice",
  "1170": " flo",
  "1171": "orn",
  "1172": "oh",
  "1173": " work",
  "1174": "ac",
  "1175": "We",
  "1176": " head",
  "1177": "uit",
  "1178": " bus",
  "1179": " worked",
  "1180": " mess",
  "1181": " dr",
  "1182": "ng",
  "1183": " real",
  "1184": " Do",
  "1185": "zy",
  "1186": "ious",
  "1187": "ohn",
  "1188": " okay",
  "1189": " others",
  "1190": " sound",
  "1191": "llow",
  "1192": "ft",
  "1193": " moral",
  "1194": " beh",
  "1195": " eyes",
  "1196": "ath",
  "1197": " sand",
  "1198": "rew",
  "1199": " talk",
  "1200": " shared",
  "1201": " advent",
  "1202": " z",
  "1203": " remember",
  "1204": " \u201c",
  "1205": " favor",
  "1206": "joy",
  "1207": "ma",
  "1208": " favorite",
  "1209": "ello",
  "1210": "Hello",
  "1211": " right",
  "1212": " ask",
  "1213": " curi",
  "1214": " cut",
  "1215": " cold",
  "1216": " ri",
  "1217": " hop",
  "1218": " con",
  "1219": " import",
  "1220": " hill",
  "1221": " mon",
  "1222": "lly",
  "1223": " dir",
  "1224": "imes",
  "1225": " making",
  "1226": " enjoy",
  "1227": " follow",
  "1228": " curious",
  "1229": " vo",
  "1230": " pie",
  "1231": " bright",
  "1232": " yard",
  "1233": " G",
  "1234": "At",
  "1235": " flower",
  "1236": "ken",
  "1237": "Don",
  "1238": " sweet",
  "1239": "reed",
  "1240": " move",
  "1241": " duck",
  "1242": " dis",
  "1243": " rest",
  "1244": " own",
  "1245": " draw",
  "1246": " first",
  "1247": " important",
  "1248": " top",
  "1249": " Jack",
  "1250": " sho",
  "1251": " cla",
  "1252": " began",
  "1253": " tall",
  "1254": " pick",
  "1255": " block",
  "1256": " watched",
  "1257": "ount",
  "1258": " sleep",
  "1259": " bel",
  "1260": " lady",
  "1261": "After",
  "1262": " night",
  "1263": " thing",
  "1264": "Wow",
  "1265": "ied",
  "1266": " race",
  "1267": "ster",
  "1268": " tail",
  "1269": " hot",
  "1270": "fere",
  "1271": " hid",
  "1272": " hun",
  "1273": " differe",
  "1274": " agreed",
  "1275": " floor",
  "1276": " shout",
  "1277": " here",
  "1278": " stop",
  "1279": "ect",
  "1280": " forg",
  "1281": " dark",
  "1282": " This",
  "1283": " bag",
  "1284": " grass",
  "1285": "ign",
  "1286": " worry",
  "1287": " song",
  "1288": " table",
  "1289": " tast",
  "1290": " tell",
  "1291": "que",
  "1292": " prin",
  "1293": " needed",
  "1294": " leaves",
  "1295": "aring",
  "1296": " voice",
  "1297": " yellow",
  "1298": " read",
  "1299": "aper",
  "1300": " farm",
  "1301": " Fin",
  "1302": " ru",
  "1303": " trees",
  "1304": " dress",
  "1305": " hair",
  "1306": " swing",
  "1307": "Why",
  "1308": " different",
  "1309": " del",
  "1310": " adventure",
  "1311": " walking",
  "1312": " turned",
  "1313": " surprise",
  "1314": " please",
  "1315": "\u2019",
  "1316": " Mr",
  "1317": " hungry",
  "1318": "Max",
  "1319": " does",
  "1320": " cars",
  "1321": " Suddenly",
  "1322": " colors",
  "1323": " Dad",
  "1324": "oom",
  "1325": "Suddenly",
  "1326": " laugh",
  "1327": "bo",
  "1328": "Sue",
  "1329": " closer",
  "1330": "ached",
  "1331": "Sam",
  "1332": " pretend",
  "1333": "co",
  "1334": " lion",
  "1335": "ient",
  "1336": "ered",
  "1337": "ila",
  "1338": " broken",
  "1339": " wood",
  "1340": " prom",
  "1341": " cried",
  "1342": "bye",
  "1343": " wet",
  "1344": " piece",
  "1345": " friendly",
  "1346": " Timmy",
  "1347": " full",
  "1348": " behind",
  "1349": " train",
  "1350": "isy",
  "1351": " dance",
  "1352": "Anna",
  "1353": "ppy",
  "1354": " touch",
  "1355": " climbed",
  "1356": " another",
  "1357": " danc",
  "1358": "af",
  "1359": " gone",
  "1360": "where",
  "1361": " apple",
  "1362": " smell",
  "1363": "bbed",
  "1364": " swim",
  "1365": " ste",
  "1366": "cked",
  "1367": "So",
  "1368": " blocks",
  "1369": "ater",
  "1370": " feeling",
  "1371": "sh",
  "1372": " paper",
  "1373": " That",
  "1374": "She",
  "1375": " amaz",
  "1376": " As",
  "1377": " ant",
  "1378": " per",
  "1379": " butter",
  "1380": " running",
  "1381": " Jane",
  "1382": " reached",
  "1383": " helping",
  "1384": " listened",
  "1385": " fair",
  "1386": "iced",
  "1387": " goodbye",
  "1388": " ready",
  "1389": "av",
  "1390": " only",
  "1391": " hold",
  "1392": " light",
  "1393": " ac",
  "1394": "ray",
  "1395": "aby",
  "1396": "ike",
  "1397": " O",
  "1398": " roll",
  "1399": "Sara",
  "1400": " cream",
  "1401": " Bobo",
  "1402": " repl",
  "1403": " dri",
  "1404": "key",
  "1405": " sit",
  "1406": " pushed",
  "1407": " fight",
  "1408": " slow",
  "1409": " plan",
  "1410": " close",
  "1411": "red",
  "1412": " All",
  "1413": " less",
  "1414": " done",
  "1415": "pe",
  "1416": " wag",
  "1417": " wall",
  "1418": " owl",
  "1419": " cool",
  "1420": " sees",
  "1421": " must",
  "1422": " glad",
  "1423": " fruit",
  "1424": " wise",
  "1425": "ield",
  "1426": " tiny",
  "1427": " wonder",
  "1428": " moment",
  "1429": " trying",
  "1430": " stuck",
  "1431": "ather",
  "1432": " dream",
  "1433": "In",
  "1434": " through",
  "1435": " din",
  "1436": "ash",
  "1437": " wished",
  "1438": " pen",
  "1439": " fire",
  "1440": "ames",
  "1441": " reach",
  "1442": " thank",
  "1443": " bar",
  "1444": " been",
  "1445": " baby",
  "1446": " window",
  "1447": " join",
  "1448": " explore",
  "1449": "ott",
  "1450": " looks",
  "1451": " doing",
  "1452": " Everyone",
  "1453": " ar",
  "1454": " buy",
  "1455": " bit",
  "1456": " shouted",
  "1457": " air",
  "1458": "Mia",
  "1459": " hide",
  "1460": " build",
  "1461": " Mommy",
  "1462": " nest",
  "1463": " swam",
  "1464": " scary",
  "1465": " fall",
  "1466": " coming",
  "1467": " cloud",
  "1468": " land",
  "1469": " bran",
  "1470": "oney",
  "1471": " win",
  "1472": " blew",
  "1473": " seen",
  "1474": "andy",
  "1475": " perf",
  "1476": "ask",
  "1477": " dirty",
  "1478": " child",
  "1479": " held",
  "1480": " books",
  "1481": "avy",
  "1482": "ph",
  "1483": " bigger",
  "1484": " replied",
  "1485": " quick",
  "1486": " left",
  "1487": " mat",
  "1488": "ely",
  "1489": " underst",
  "1490": " might",
  "1491": " treat",
  "1492": "ndma",
  "1493": " colorful",
  "1494": " pulled",
  "1495": " grabbed",
  "1496": " why",
  "1497": " turns",
  "1498": "Okay",
  "1499": " dro",
  "1500": " butterf",
  "1501": "ized",
  "1502": " remembered",
  "1503": "icy",
  "1504": " fill",
  "1505": " name",
  "1506": "ucky",
  "1507": " cup",
  "1508": " chair",
  "1509": " cast",
  "1510": " broke",
  "1511": "orm",
  "1512": " sometimes",
  "1513": " count",
  "1514": "aisy",
  "1515": " three",
  "1516": " sure",
  "1517": "oup",
  "1518": "ation",
  "1519": " spl",
  "1520": " hopped",
  "1521": " pink",
  "1522": "ton",
  "1523": " stayed",
  "1524": " snow",
  "1525": " job",
  "1526": " clapped",
  "1527": "up",
  "1528": "Oh",
  "1529": " games",
  "1530": "der",
  "1531": " bott",
  "1532": " gif",
  "1533": "ee",
  "1534": " waited",
  "1535": "'re",
  "1536": " There",
  "1537": " plant",
  "1538": " noticed",
  "1539": " grow",
  "1540": " lesson",
  "1541": " balloon",
  "1542": "ix",
  "1543": " anything",
  "1544": " pictures",
  "1545": " woods",
  "1546": "outh",
  "1547": " mouth",
  "1548": " paint",
  "1549": " After",
  "1550": "uddy",
  "1551": " waved",
  "1552": " set",
  "1553": "ower",
  "1554": " enjoyed",
  "1555": "room",
  "1556": " spot",
  "1557": " alone",
  "1558": " pot",
  "1559": " cont",
  "1560": "This",
  "1561": " sea",
  "1562": " brother",
  "1563": "ds",
  "1564": " likes",
  "1565": "art",
  "1566": "oun",
  "1567": "amp",
  "1568": "Her",
  "1569": " tight",
  "1570": "\".",
  "1571": " year",
  "1572": " threw",
  "1573": " heavy",
  "1574": " white",
  "1575": " followed",
  "1576": " quickly",
  "1577": " gent",
  "1578": " butterfly",
  "1579": "ins",
  "1580": "Spot",
  "1581": " miss",
  "1582": " cookies",
  "1583": "ape",
  "1584": " ju",
  "1585": " deep",
  "1586": "asure",
  "1587": "olly",
  "1588": " everywhere",
  "1589": "de",
  "1590": "Lucy",
  "1591": "ze",
  "1592": " bee",
  "1593": " pat",
  "1594": "oe",
  "1595": " John",
  "1596": "ries",
  "1597": "aught",
  "1598": " mar",
  "1599": "Bob",
  "1600": " world",
  "1601": "ister",
  "1602": "cle",
  "1603": " clot",
  "1604": " wrong",
  "1605": " clothes",
  "1606": " castle",
  "1607": " cre",
  "1608": " wear",
  "1609": "less",
  "1610": "lc",
  "1611": " pu",
  "1612": "ross",
  "1613": " mum",
  "1614": " button",
  "1615": " leaf",
  "1616": "iet",
  "1617": " nap",
  "1618": " Buddy",
  "1619": "ner",
  "1620": " quiet",
  "1621": " mix",
  "1622": " key",
  "1623": "arent",
  "1624": " makes",
  "1625": "ang",
  "1626": " brought",
  "1627": " round",
  "1628": "row",
  "1629": " parent",
  "1630": "ully",
  "1631": "ued",
  "1632": "rot",
  "1633": " wants",
  "1634": " well",
  "1635": " himself",
  "1636": " Daisy",
  "1637": "os",
  "1638": " won",
  "1639": " ride",
  "1640": " delic",
  "1641": " field",
  "1642": "man",
  "1643": " danced",
  "1644": " break",
  "1645": " arm",
  "1646": " tower",
  "1647": " Lila",
  "1648": "Do",
  "1649": " sign",
  "1650": " What",
  "1651": "fully",
  "1652": " snack",
  "1653": " hit",
  "1654": "thy",
  "1655": " drag",
  "1656": " faster",
  "1657": " king",
  "1658": " gift",
  "1659": " talked",
  "1660": " forgot",
  "1661": " wish",
  "1662": " leg",
  "1663": " beach",
  "1664": "gg",
  "1665": " sister",
  "1666": " river",
  "1667": " mus",
  "1668": "cess",
  "1669": "ence",
  "1670": " finished",
  "1671": " branch",
  "1672": " dry",
  "1673": " comp",
  "1674": "leph",
  "1675": "ves",
  "1676": "itten",
  "1677": "cy",
  "1678": " sharing",
  "1679": "From",
  "1680": " pol",
  "1681": " bike",
  "1682": " Inside",
  "1683": "vel",
  "1684": " dinner",
  "1685": " dragon",
  "1686": " fur",
  "1687": "ards",
  "1688": " ra",
  "1689": " danger",
  "1690": " rel",
  "1691": " em",
  "1692": " really",
  "1693": " bor",
  "1694": "ipp",
  "1695": " vis",
  "1696": " understand",
  "1697": " shin",
  "1698": "ance",
  "1699": " To",
  "1700": " black",
  "1701": "John",
  "1702": "ren",
  "1703": " bottle",
  "1704": " monkey",
  "1705": " fox",
  "1706": "His",
  "1707": "eddy",
  "1708": " monster",
  "1709": " pig",
  "1710": " smart",
  "1711": " At",
  "1712": " poin",
  "1713": " worried",
  "1714": " rocks",
  "1715": " contin",
  "1716": "Amy",
  "1717": " gu",
  "1718": " carefully",
  "1719": " bowl",
  "1720": " someone",
  "1721": "imi",
  "1722": "ctor",
  "1723": " fairy",
  "1724": " today",
  "1725": " att",
  "1726": "ast",
  "1727": " filled",
  "1728": " side",
  "1729": " pudd",
  "1730": " eating",
  "1731": "ush",
  "1732": " welc",
  "1733": " el",
  "1734": "ses",
  "1735": " gi",
  "1736": " cow",
  "1737": " boun",
  "1738": "itting",
  "1739": " snake",
  "1740": " brown",
  "1741": "ead",
  "1742": " whe",
  "1743": " promised",
  "1744": " fan",
  "1745": "While",
  "1746": " silly",
  "1747": " pet",
  "1748": " happen",
  "1749": "Just",
  "1750": " everything",
  "1751": " yes",
  "1752": "ts",
  "1753": " res",
  "1754": " parents",
  "1755": " Soon",
  "1756": " Maybe",
  "1757": " soup",
  "1758": " visit",
  "1759": " music",
  "1760": " mud",
  "1761": " letter",
  "1762": "ated",
  "1763": " free",
  "1764": " else",
  "1765": " pieces",
  "1766": " road",
  "1767": " children",
  "1768": "stead",
  "1769": " bite",
  "1770": " shop",
  "1771": " sang",
  "1772": " continued",
  "1773": "Fin",
  "1774": " talking",
  "1775": " perfect",
  "1776": " kite",
  "1777": "zz",
  "1778": " flying",
  "1779": " egg",
  "1780": " smiles",
  "1781": " throw",
  "1782": " realized",
  "1783": " Billy",
  "1784": " mail",
  "1785": " ear",
  "1786": " Sarah",
  "1787": "ord",
  "1788": " words",
  "1789": " Em",
  "1790": ".\u201d",
  "1791": " amazing",
  "1792": "cket",
  "1793": " laughing",
  "1794": " jar",
  "1795": " wagged",
  "1796": " orange",
  "1797": " que",
  "1798": " sec",
  "1799": " moved",
  "1800": " sitting",
  "1801": " enough",
  "1802": " closed",
  "1803": " Z",
  "1804": " pass",
  "1805": " without",
  "1806": " shining",
  "1807": " mother",
  "1808": "gly",
  "1809": " smo",
  "1810": " stand",
  "1811": " crab",
  "1812": " buck",
  "1813": " sail",
  "1814": " rope",
  "1815": " dangerous",
  "1816": "fort",
  "1817": " strange",
  "1818": " secret",
  "1819": " barked",
  "1820": " bath",
  "1821": " stu",
  "1822": " tasty",
  "1823": " drink",
  "1824": " Mimi",
  "1825": "unch",
  "1826": " ve",
  "1827": " welcome",
  "1828": "fish",
  "1829": "ella",
  "1830": " paw",
  "1831": "used",
  "1832": "iver",
  "1833": "board",
  "1834": " crying",
  "1835": " whist",
  "1836": " past",
  "1837": " heal",
  "1838": " ce",
  "1839": "ises",
  "1840": " lon",
  "1841": " candy",
  "1842": " living",
  "1843": " Joe",
  "1844": " -",
  "1845": " higher",
  "1846": "ches",
  "1847": "Maybe",
  "1848": " lonely",
  "1849": " pre",
  "1850": " owner",
  "1851": " Ch",
  "1852": " shoes",
  "1853": " belie",
  "1854": " sack",
  "1855": " farmer",
  "1856": "Please",
  "1857": " morning",
  "1858": "chool",
  "1859": "ato",
  "1860": "arm",
  "1861": " tom",
  "1862": " Jen",
  "1863": "gy",
  "1864": " swings",
  "1865": " delicious",
  "1866": " purp",
  "1867": "ract",
  "1868": " school",
  "1869": "llie",
  "1870": "isk",
  "1871": " scream",
  "1872": " teac",
  "1873": "ible",
  "1874": " push",
  "1875": " finally",
  "1876": "!\u201d",
  "1877": " stone",
  "1878": " rolled",
  "1879": " ph",
  "1880": " grandma",
  "1881": "lephant",
  "1882": "lder",
  "1883": "Mommy",
  "1884": " puddle",
  "1885": "ich",
  "1886": " stre",
  "1887": " dolls",
  "1888": "me",
  "1889": " Bl",
  "1890": " getting",
  "1891": " blank",
  "1892": "ire",
  "1893": "ama",
  "1894": " purple",
  "1895": " lake",
  "1896": " asks",
  "1897": "lla",
  "1898": "asket",
  "1899": " years",
  "1900": " trou",
  "1901": " shell",
  "1902": " mad",
  "1903": "ased",
  "1904": " caught",
  "1905": " blanket",
  "1906": " corn",
  "1907": "set",
  "1908": " treasure",
  "1909": " wore",
  "1910": " runs",
  "1911": " money",
  "1912": "ub",
  "1913": " basket",
  "1914": " hoped",
  "1915": "ons",
  "1916": " pile",
  "1917": "iskers",
  "1918": " same",
  "1919": "eo",
  "1920": " singing",
  "1921": "app",
  "1922": " herself",
  "1923": "ey",
  "1924": " wings",
  "1925": " pers",
  "1926": " apples",
  "1927": "cks",
  "1928": " cute",
  "1929": " ben",
  "1930": "br",
  "1931": " mine",
  "1932": " je",
  "1933": " bat",
  "1934": " Tommy",
  "1935": "igh",
  "1936": " plane",
  "1937": " gentle",
  "1938": " carrot",
  "1939": " cray",
  "1940": "\n ",
  "1941": " teacher",
  "1942": " elephant",
  "1943": " coat",
  "1944": " sear",
  "1945": " pill",
  "1946": " dropped",
  "1947": " balls",
  "1948": " start",
  "1949": " fit",
  "1950": " teddy",
  "1951": " days",
  "1952": "thday",
  "1953": "irthday",
  "1954": " cour",
  "1955": " doctor",
  "1956": "Finally",
  "1957": "ined",
  "1958": " war",
  "1959": " course",
  "1960": " forever",
  "1961": "aughty",
  "1962": " woke",
  "1963": " joy",
  "1964": " naughty",
  "1965": " hiding",
  "1966": " seed",
  "1967": " card",
  "1968": " promise",
  "1969": " min",
  "1970": " bring",
  "1971": "ilk",
  "1972": " Whiskers",
  "1973": " most",
  "1974": " arri",
  "1975": " teach",
  "1976": " spin",
  "1977": " cookie",
  "1978": " cr",
  "1979": " band",
  "1980": "umpy",
  "1981": "ol",
  "1982": "ator",
  "1983": " shap",
  "1984": " fence",
  "1985": " chee",
  "1986": " rob",
  "1987": " bush",
  "1988": " Gra",
  "1989": " Blue",
  "1990": " thinks",
  "1991": " shr",
  "1992": " milk",
  "1993": " lunch",
  "1994": " ugly",
  "1995": " eas",
  "1996": " birthday",
  "1997": "arp",
  "1998": " nose",
  "1999": " touc",
  "2000": "ose",
  "2001": " juice",
  "2002": " Thank",
  "2003": " vill",
  "2004": " ob",
  "2005": " grew",
  "2006": " bow",
  "2007": " pop",
  "2008": " belong",
  "2009": "sw",
  "2010": " shapes",
  "2011": " answ",
  "2012": "fused",
  "2013": "itch",
  "2014": "ipped",
  "2015": " sharp",
  "2016": " Fred",
  "2017": "ass",
  "2018": "ail",
  "2019": " creat",
  "2020": " young",
  "2021": " heart",
  "2022": "umber",
  "2023": "sy",
  "2024": "irt",
  "2025": " bench",
  "2026": "ier",
  "2027": " street",
  "2028": " Bella",
  "2029": "bow",
  "2030": "'ll",
  "2031": " Leo",
  "2032": " seem",
  "2033": "Jack",
  "2034": " bone",
  "2035": "erry",
  "2036": " wra",
  "2037": " mark",
  "2038": " late",
  "2039": " able",
  "2040": "sc",
  "2041": "eter",
  "2042": "ball",
  "2043": "ale",
  "2044": " believe",
  "2045": " rocket",
  "2046": " zoom",
  "2047": " bucket",
  "2048": " coin",
  "2049": " bread",
  "2050": " robot",
  "2051": " pocket",
  "2052": " power",
  "2053": " magical",
  "2054": " dirt",
  "2055": " touched",
  "2056": " spoon",
  "2057": " shy",
  "2058": " kiss",
  "2059": " inc",
  "2060": " slowly",
  "2061": " shook",
  "2062": " busy",
  "2063": " twins",
  "2064": " kitten",
  "2065": " prob",
  "2066": " cheered",
  "2067": " arrived",
  "2068": " shake",
  "2069": " feels",
  "2070": " lem",
  "2071": " craw",
  "2072": " seat",
  "2073": " neck",
  "2074": " carry",
  "2075": " trip",
  "2076": " storm",
  "2077": "ling",
  "2078": " amazed",
  "2079": "ung",
  "2080": " spo",
  "2081": " few",
  "2082": "eared",
  "2083": " village",
  "2084": "igg",
  "2085": "OK",
  "2086": " bell",
  "2087": "lem",
  "2088": "idge",
  "2089": " taking",
  "2090": " stories",
  "2091": " patient",
  "2092": " grumpy",
  "2093": " fixed",
  "2094": " coll",
  "2095": "oose",
  "2096": " problem",
  "2097": " nut",
  "2098": "urtle",
  "2099": "ost",
  "2100": " wheel",
  "2101": "Good",
  "2102": " sounds",
  "2103": " wonderful",
  "2104": " live",
  "2105": " gray",
  "2106": " dist",
  "2107": "irp",
  "2108": " rainbow",
  "2109": "una",
  "2110": " wave",
  "2111": " towards",
  "2112": " sug",
  "2113": " huge",
  "2114": " spark",
  "2115": " rude",
  "2116": " driver",
  "2117": " hor",
  "2118": " cover",
  "2119": "ors",
  "2120": "fortable",
  "2121": " whistle",
  "2122": " songs",
  "2123": " cart",
  "2124": " Mark",
  "2125": " cir",
  "2126": "emy",
  "2127": " wide",
  "2128": " Momo",
  "2129": " sal",
  "2130": "epend",
  "2131": "Lila",
  "2132": " rec",
  "2133": " des",
  "2134": "unt",
  "2135": "ens",
  "2136": " string",
  "2137": " disapp",
  "2138": "kin",
  "2139": "elly",
  "2140": "bble",
  "2141": " treats",
  "2142": " suc",
  "2143": "pping",
  "2144": " path",
  "2145": " meet",
  "2146": "iling",
  "2147": " upset",
  "2148": " holding",
  "2149": " cheese",
  "2150": "alm",
  "2151": " moon",
  "2152": "oph",
  "2153": "Be",
  "2154": " turtle",
  "2155": " worm",
  "2156": " wild",
  "2157": "Of",
  "2158": "ourn",
  "2159": "Sure",
  "2160": " lay",
  "2161": " hugs",
  "2162": " N",
  "2163": " grab",
  "2164": " fighting",
  "2165": " life",
  "2166": " giant",
  "2167": " di",
  "2168": " puppy",
  "2169": " peace",
  "2170": " journ",
  "2171": " bugs",
  "2172": "umb",
  "2173": "ring",
  "2174": " smooth",
  "2175": " jew",
  "2176": "adow",
  "2177": " note",
  "2178": " joke",
  "2179": " ban",
  "2180": " noises",
  "2181": " jewel",
  "2182": " cloth",
  "2183": " Just",
  "2184": " Emma",
  "2185": " smelly",
  "2186": " sour",
  "2187": " mist",
  "2188": " honey",
  "2189": "ountain",
  "2190": " lucky",
  "2191": " inv",
  "2192": " ser",
  "2193": " landed",
  "2194": " cou",
  "2195": "ular",
  "2196": "izzy",
  "2197": "onest",
  "2198": " On",
  "2199": "pper",
  "2200": " net",
  "2201": "St",
  "2202": " thin",
  "2203": " rad",
  "2204": " cave",
  "2205": "aur",
  "2206": " princess",
  "2207": " honest",
  "2208": " beak",
  "2209": " Ann",
  "2210": "not",
  "2211": "ife",
  "2212": " jelly",
  "2213": " drive",
  "2214": " boss",
  "2215": "isa",
  "2216": " part",
  "2217": " chew",
  "2218": " banan",
  "2219": "ery",
  "2220": " seek",
  "2221": " cannot",
  "2222": " missed",
  "2223": " act",
  "2224": " Molly",
  "2225": " stars",
  "2226": " med",
  "2227": " ba",
  "2228": "ove",
  "2229": " dogs",
  "2230": "read",
  "2231": " suddenly",
  "2232": " sick",
  "2233": " ign",
  "2234": "sp",
  "2235": " oven",
  "2236": " drove",
  "2237": "lower",
  "2238": " bri",
  "2239": " tea",
  "2240": " step",
  "2241": " splas",
  "2242": " Finally",
  "2243": " shelf",
  "2244": "iger",
  "2245": " exp",
  "2246": " snowman",
  "2247": " wasn",
  "2248": " instead",
  "2249": "Hey",
  "2250": " taste",
  "2251": " foot",
  "2252": " fle",
  "2253": " Dog",
  "2254": " maybe",
  "2255": " ducks",
  "2256": "ope",
  "2257": "ert",
  "2258": "Later",
  "2259": " sel",
  "2260": " across",
  "2261": "ateful",
  "2262": " sandw",
  "2263": " helpful",
  "2264": " fancy",
  "2265": " adventures",
  "2266": "est",
  "2267": " bought",
  "2268": " wash",
  "2269": " organ",
  "2270": "ian",
  "2271": "ere",
  "2272": " cross",
  "2273": "To",
  "2274": " line",
  "2275": " glow",
  "2276": " Remy",
  "2277": " grateful",
  "2278": " comes",
  "2279": " slid",
  "2280": " forget",
  "2281": " confused",
  "2282": " ash",
  "2283": "let",
  "2284": "idy",
  "2285": " spe",
  "2286": " puzz",
  "2287": " pillow",
  "2288": " healthy",
  "2289": " change",
  "2290": " pract",
  "2291": " dish",
  "2292": " zoo",
  "2293": " Ollie",
  "2294": "oomy",
  "2295": "oppy",
  "2296": " val",
  "2297": " stepped",
  "2298": "erest",
  "2299": " last",
  "2300": " lad",
  "2301": " interest",
  "2302": " cap",
  "2303": " selfish",
  "2304": " elder",
  "2305": " cho",
  "2306": "ity",
  "2307": " working",
  "2308": " whole",
  "2309": " elderly",
  "2310": " easy",
  "2311": "ward",
  "2312": " watching",
  "2313": " sticks",
  "2314": " hope",
  "2315": " anyone",
  "2316": "col",
  "2317": " messy",
  "2318": " calm",
  "2319": "amed",
  "2320": " takes",
  "2321": " save",
  "2322": " pri",
  "2323": " forgive",
  "2324": " daddy",
  "2325": " chased",
  "2326": "ize",
  "2327": "irpy",
  "2328": " weak",
  "2329": " team",
  "2330": " myster",
  "2331": " av",
  "2332": " write",
  "2333": " shirt",
  "2334": " ladder",
  "2335": "oc",
  "2336": " wolf",
  "2337": " tape",
  "2338": "to",
  "2339": "pect",
  "2340": " splash",
  "2341": " lemon",
  "2342": " legs",
  "2343": " clever",
  "2344": " Sp",
  "2345": " phone",
  "2346": " mind",
  "2347": " horse",
  "2348": " feather",
  "2349": " plants",
  "2350": " person",
  "2351": " longer",
  "2352": "ider",
  "2353": " tidy",
  "2354": " stret",
  "2355": " prot",
  "2356": " pour",
  "2357": " jog",
  "2358": "ork",
  "2359": "ever",
  "2360": " emp",
  "2361": "izz",
  "2362": "Soon",
  "2363": " pan",
  "2364": " later",
  "2365": " empty",
  "2366": " bark",
  "2367": " along",
  "2368": " Cat",
  "2369": "Sally",
  "2370": " seemed",
  "2371": " faces",
  "2372": " boot",
  "2373": " Bu",
  "2374": " pretended",
  "2375": " lock",
  "2376": " cozy",
  "2377": "bbles",
  "2378": " sleepy",
  "2379": "ions",
  "2380": " hum",
  "2381": "iting",
  "2382": " waiting",
  "2383": " stir",
  "2384": " saved",
  "2385": " su",
  "2386": " finish",
  "2387": "llo",
  "2388": " swimm",
  "2389": " mach",
  "2390": "pill",
  "2391": "pillar",
  "2392": "Come",
  "2393": " ret",
  "2394": "ually",
  "2395": "ained",
  "2396": "?\u201d",
  "2397": " spicy",
  "2398": " cheer",
  "2399": " chick",
  "2400": " bounce",
  "2401": " Come",
  "2402": " screamed",
  "2403": " return",
  "2404": " ring",
  "2405": " goat",
  "2406": " Lisa",
  "2407": " ent",
  "2408": "ult",
  "2409": " pool",
  "2410": " fake",
  "2411": " Chirpy",
  "2412": "den",
  "2413": " jumping",
  "2414": " Daddy",
  "2415": " supp",
  "2416": " such",
  "2417": " interesting",
  "2418": " wondered",
  "2419": " tie",
  "2420": " clouds",
  "2421": " print",
  "2422": "ek",
  "2423": " pin",
  "2424": " mistake",
  "2425": " fruits",
  "2426": " Ducky",
  "2427": "unk",
  "2428": " drank",
  "2429": "ocked",
  "2430": " spray",
  "2431": " lift",
  "2432": "erpillar",
  "2433": " though",
  "2434": " plate",
  "2435": " eag",
  "2436": " caterpillar",
  "2437": " stra",
  "2438": " bossy",
  "2439": " Together",
  "2440": "issors",
  "2441": "dge",
  "2442": "box",
  "2443": " onto",
  "2444": " gather",
  "2445": "eth",
  "2446": " kick",
  "2447": " drew",
  "2448": " building",
  "2449": " Benny",
  "2450": " swimming",
  "2451": " scissors",
  "2452": " machine",
  "2453": "lebr",
  "2454": " rich",
  "2455": " With",
  "2456": " TV",
  "2457": "ormal",
  "2458": " sheep",
  "2459": " number",
  "2460": " hidden",
  "2461": " gives",
  "2462": " celebr",
  "2463": " St",
  "2464": " Ella",
  "2465": "ont",
  "2466": " normal",
  "2467": " wing",
  "2468": " brush",
  "2469": "Kitty",
  "2470": " lovely",
  "2471": " furry",
  "2472": " explor",
  "2473": " crayons",
  "2474": " cleaned",
  "2475": " arms",
  "2476": " trouble",
  "2477": " glue",
  "2478": " front",
  "2479": "ment",
  "2480": "izza",
  "2481": "aced",
  "2482": " spider",
  "2483": " penc",
  "2484": " pack",
  "2485": " fing",
  "2486": " cher",
  "2487": " My",
  "2488": " sugar",
  "2489": " pointed",
  "2490": " pencil",
  "2491": " match",
  "2492": " lar",
  "2493": " cage",
  "2494": " Doggy",
  "2495": "elp",
  "2496": " mel",
  "2497": " appeared",
  "2498": " Their",
  "2499": " Bunny",
  "2500": "urse",
  "2501": " puts",
  "2502": " smelled",
  "2503": " prince",
  "2504": "osaur",
  "2505": "oop",
  "2506": "ned",
  "2507": " sur",
  "2508": " pray",
  "2509": " gently",
  "2510": " gate",
  "2511": " Luna",
  "2512": " Grandma",
  "2513": "yard",
  "2514": " search",
  "2515": " matter",
  "2516": " dinosaur",
  "2517": " backyard",
  "2518": "And",
  "2519": " fear",
  "2520": " fil",
  "2521": " drum",
  "2522": "pa",
  "2523": " ship",
  "2524": " class",
  "2525": " towel",
  "2526": " queen",
  "2527": " gun",
  "2528": " circle",
  "2529": " van",
  "2530": " smiling",
  "2531": " couch",
  "2532": " Go",
  "2533": "aughter",
  "2534": " tear",
  "2535": " nearby",
  "2536": " imag",
  "2537": " icy",
  "2538": " yelled",
  "2539": " ashamed",
  "2540": " powerful",
  "2541": "gest",
  "2542": " wand",
  "2543": " quest",
  "2544": " places",
  "2545": " flag",
  "2546": " cri",
  "2547": " Somet",
  "2548": " Jerry",
  "2549": "Help",
  "2550": " law",
  "2551": "lev",
  "2552": " wom",
  "2553": " lamp",
  "2554": " af",
  "2555": " Why",
  "2556": "orrow",
  "2557": "icked",
  "2558": " woman",
  "2559": " pizza",
  "2560": " mir",
  "2561": " large",
  "2562": " daughter",
  "2563": " carried",
  "2564": " Mama",
  "2565": "My",
  "2566": " wrap",
  "2567": " trust",
  "2568": " journey",
  "2569": " glass",
  "2570": " ap",
  "2571": "ym",
  "2572": "Stop",
  "2573": " true",
  "2574": " rub",
  "2575": " neigh",
  "2576": " gas",
  "2577": " Jim",
  "2578": "vous",
  "2579": "ror",
  "2580": "ones",
  "2581": " tries",
  "2582": " neighb",
  "2583": " bal",
  "2584": "ique",
  "2585": " unique",
  "2586": " jeep",
  "2587": " ignor",
  "2588": " emb",
  "2589": " Jill",
  "2590": "isp",
  "2591": "ensive",
  "2592": " wearing",
  "2593": " fright",
  "2594": " expensive",
  "2595": " tomorrow",
  "2596": " hur",
  "2597": " goes",
  "2598": " If",
  "2599": "itter",
  "2600": " loves",
  "2601": " dizzy",
  "2602": " Be",
  "2603": "ced",
  "2604": " weird",
  "2605": " saf",
  "2606": " dig",
  "2607": " ants",
  "2608": "ugg",
  "2609": "raid",
  "2610": " these",
  "2611": " mirror",
  "2612": " hello",
  "2613": " dancing",
  "2614": " chase",
  "2615": " Bobby",
  "2616": " spring",
  "2617": " reg",
  "2618": " afraid",
  "2619": " scar",
  "2620": " nothing",
  "2621": " Br",
  "2622": "rass",
  "2623": "arrass",
  "2624": " poor",
  "2625": " frightened",
  "2626": " Tiny",
  "2627": "ndpa",
  "2628": "mer",
  "2629": "kn",
  "2630": " whisp",
  "2631": " test",
  "2632": " ner",
  "2633": " lazy",
  "2634": " embarrass",
  "2635": " eager",
  "2636": " cand",
  "2637": "iff",
  "2638": " protect",
  "2639": "aw",
  "2640": " tomato",
  "2641": " stood",
  "2642": " dest",
  "2643": "ness",
  "2644": "known",
  "2645": " success",
  "2646": " nervous",
  "2647": "bby",
  "2648": " splashed",
  "2649": " puzzle",
  "2650": " bridge",
  "2651": " wis",
  "2652": " wip",
  "2653": " unknown",
  "2654": " pay",
  "2655": " clay",
  "2656": " bake",
  "2657": " incred",
  "2658": " impress",
  "2659": " gold",
  "2660": " gigg",
  "2661": " gen",
  "2662": " decor",
  "2663": " creative",
  "2664": "ventually",
  "2665": "ina",
  "2666": " feet",
  "2667": "era",
  "2668": " incredible",
  "2669": " Rex",
  "2670": " tent",
  "2671": " sol",
  "2672": " sock",
  "2673": " sandwich",
  "2674": " lead",
  "2675": " teeth",
  "2676": " swan",
  "2677": "any",
  "2678": " useful",
  "2679": " clock",
  "2680": " Mary",
  "2681": " How",
  "2682": "ute",
  "2683": "ual",
  "2684": " steak",
  "2685": " respect",
  "2686": " boring",
  "2687": " Bird",
  "2688": " Bear",
  "2689": "berry",
  "2690": " straw",
  "2691": " square",
  "2692": " soap",
  "2693": " disco",
  "2694": "lves",
  "2695": " pres",
  "2696": " mixed",
  "2697": " fool",
  "2698": " closet",
  "2699": "owed",
  "2700": " potato",
  "2701": " peaceful",
  "2702": " pump",
  "2703": " mask",
  "2704": " knocked",
  "2705": "cream",
  "2706": "airs",
  "2707": " whale",
  "2708": " sword",
  "2709": " mysterious",
  "2710": " famous",
  "2711": " burn",
  "2712": "upid",
  "2713": "Tommy",
  "2714": " har",
  "2715": " gener",
  "2716": " bean",
  "2717": " Andy",
  "2718": "we",
  "2719": "rated",
  "2720": " yog",
  "2721": " sold",
  "2722": " shark",
  "2723": " answer",
  "2724": " 3",
  "2725": " sco",
  "2726": "cient",
  "2727": "bled",
  "2728": "arl",
  "2729": " wouldn",
  "2730": " rug",
  "2731": " polite",
  "2732": " kicked",
  "2733": " feed",
  "2734": " Please",
  "2735": "erri",
  "2736": "com",
  "2737": " snacks",
  "2738": " measure",
  "2739": " jam",
  "2740": " disg",
  "2741": " ancient",
  "2742": " relie",
  "2743": " corner",
  "2744": " blow",
  "2745": "ond",
  "2746": " space",
  "2747": " noisy",
  "2748": " esc",
  "2749": "reen",
  "2750": "ote",
  "2751": "imp",
  "2752": " spread",
  "2753": " scarf",
  "2754": " branches",
  "2755": "ormous",
  "2756": " stupid",
  "2757": " painted",
  "2758": " chocol",
  "2759": " Don",
  "2760": "rob",
  "2761": " shoe",
  "2762": " rough",
  "2763": " march",
  "2764": " eggs",
  "2765": " wagon",
  "2766": " paws",
  "2767": "uce",
  "2768": " study",
  "2769": " moms",
  "2770": " frust",
  "2771": " disgust",
  "2772": " dead",
  "2773": " dug",
  "2774": " crown",
  "2775": "robe",
  "2776": " terri",
  "2777": " foolish",
  "2778": " barn",
  "2779": " Sometimes",
  "2780": "enny",
  "2781": "Dad",
  "2782": " steal",
  "2783": " sell",
  "2784": " rare",
  "2785": " present",
  "2786": " mis",
  "2787": " enormous",
  "2788": "getable",
  "2789": " vegetable",
  "2790": " understood",
  "2791": " scare",
  "2792": " salad",
  "2793": " medic",
  "2794": " disgusting",
  "2795": " chocolate",
  "2796": " banana",
  "2797": " bald",
  "2798": "ighed",
  "2799": "edient",
  "2800": "corn",
  "2801": "ado",
  "2802": " stuff",
  "2803": " medicine",
  "2804": " hero",
  "2805": " generous",
  "2806": " clap",
  "2807": "fic",
  "2808": " group",
  "2809": " goose",
  "2810": " diffic",
  "2811": " bitter",
  "2812": "pes",
  "2813": " thick",
  "2814": " roar",
  "2815": " perform",
  "2816": " mush",
  "2817": " frustrated",
  "2818": " difficult",
  "2819": " breath",
  "2820": " Sammy",
  "2821": " Instead",
  "2822": " tick",
  "2823": " smaller",
  "2824": " shadow",
  "2825": " melon",
  "2826": " market",
  "2827": " covered",
  "2828": " Pe",
  "2829": "uitar",
  "2830": " tasted",
  "2831": " ord",
  "2832": " obedient",
  "2833": " guitar",
  "2834": "roy",
  "2835": "port",
  "2836": "orry",
  "2837": "mb",
  "2838": " wake",
  "2839": "alk",
  "2840": " lab",
  "2841": " hang",
  "2842": " horn",
  "2843": " destroy",
  "2844": " Some",
  "2845": "inal",
  "2846": "asses",
  "2847": " toug",
  "2848": " ref",
  "2849": " mountain",
  "2850": " mot",
  "2851": " bored",
  "2852": " asleep",
  "2853": "aking",
  "2854": "Timmy",
  "2855": " which",
  "2856": " taught"
}